/**
  ******************************************************************************
  * @file    stretch_lstm_data_params.c
  * @author  AST Embedded Analytics Research Platform
  * @date    2025-01-09T01:48:46+0900
  * @brief   AI Tool Automatic Code Generator for Embedded NN computing
  ******************************************************************************
  * Copyright (c) 2025 STMicroelectronics.
  * All rights reserved.
  *
  * This software is licensed under terms that can be found in the LICENSE file
  * in the root directory of this software component.
  * If no LICENSE file comes with this software, it is provided AS-IS.
  ******************************************************************************
  */

#include "stretch_lstm_data_params.h"


/**  Activations Section  ****************************************************/
ai_handle g_stretch_lstm_activations_table[1 + 2] = {
  AI_HANDLE_PTR(AI_MAGIC_MARKER),
  AI_HANDLE_PTR(NULL),
  AI_HANDLE_PTR(AI_MAGIC_MARKER),
};




/**  Weights Section  ********************************************************/
AI_ALIGNED(32)
const ai_u64 s_stretch_lstm_weights_array_u64[609] = {
  0xbf286315c10ec15eU, 0x3ecab5babe42f5c8U, 0xbf06f2f34109eb53U, 0xbf3c09f7bf916b19U,
  0x3f394b1fbeeee073U, 0xbebc80d0c093f6ceU, 0xbf805393bed2d014U, 0x3fb0e61842a3cc0eU,
  0xbe70c8e8bd1c0810U, 0x3e6573e83e80261eU, 0xbe34cfc43e92c3e2U, 0x3e47a94a3e8110feU,
  0xbe1d32213c9aca70U, 0xbe65ead43e102d42U, 0x3c5849c03e72f22cU, 0x3da1d6403dafde4cU,
  0xbfdb3e424168b6e9U, 0x38f96dc8400f4f7bU, 0xc08520a33d123e79U, 0xbd03bbe040a2da08U,
  0x39092101bfbc9e70U, 0xbfd25901c089abc5U, 0xc0a5828e403d2c0bU, 0x3beae40741af1339U,
  0xbe467027c10d2d2aU, 0x3e930c143e514d25U, 0xbf18f24941086191U, 0xbf96372bbf5b1bd5U,
  0x3f2011d9bf127c45U, 0xbf0befbfc07fa035U, 0xbf13f8adbf0b0073U, 0x40057bec41ecd479U,
  0xbe1c1c693bb94f00U, 0xbd8ba9babdb9db9eU, 0x3db1f9a4be25ed31U, 0xbd062de1bddc1c80U,
  0xbec67ac0bd6865f7U, 0xbda837cc3e2ee966U, 0x3d1399153dd68c02U, 0x3dcb4788be664e87U,
  0xbde358023d5117a4U, 0xbdd26c6e3d31d5fdU, 0x3dcf42073da47318U, 0xbe31b3613dd82630U,
  0x3e06d1363d504b86U, 0x3df03a013d1be0b0U, 0xbe70f8003da0e407U, 0x3e4f199abe8041ddU,
  0xbd8308f53c983ca3U, 0x3d1887753dea60a4U, 0x3d426ec63c1c060bU, 0x3e52a3173d6286d3U,
  0xbdb394fdbd3e5844U, 0x3e150fc6bde115e8U, 0xbe9eaca3bcecfb53U, 0xbd2bf8a6bc2b7664U,
  0xbe53c8783d8d26c6U, 0x3db4eff7bd9cba6aU, 0x3e75dea8be2ba0d9U, 0x3e8af6d7bdd8ad3aU,
  0xbe47af6c3cdb8164U, 0xbe1c3c1bbd33465aU, 0xbe006866bd477744U, 0x3e6ea80ebc5846e8U,
  0xbe2ff7073e1baa4fU, 0xbe14da6e3cceb7c8U, 0x3d9945b03e87d8d0U, 0x3ce3797cbe2c78d9U,
  0x3d9e60d6be534111U, 0x3e0651ccbe54a440U, 0x3df852e5bdaf011eU, 0xbd6a7abbbcfa7880U,
  0xbd80aefc3e43a32aU, 0x3de0d8943e312e3cU, 0x3db9fedebdfec9ccU, 0xbcab21b9bcc4c485U,
  0x3e02b25cbd823a2bU, 0x3e7523e53da9e60cU, 0x3dd3a14bbca7ce65U, 0xbd241e5abdb85ddaU,
  0x3d9fe894bd80e8aeU, 0xbd3012163cbfff24U, 0x3daf927abdc66e61U, 0x3aeadc6c3e264262U,
  0x3e45dcc63e20bbafU, 0xbdfca309be83781fU, 0x3d54670b3d17ec66U, 0xbe1556ae3e1b0f2cU,
  0x3dae18cdbda2cf35U, 0xbd75278bbcae6312U, 0xbe129206be8550a7U, 0x3cb9be92bdc49c76U,
  0xbc66b16c3caffb53U, 0x3d1c107a3cba11eaU, 0x3d52a48b3dab7b2cU, 0xbe32d947bc302c5cU,
  0xbd425e26be361ed1U, 0xbe0938153df3d274U, 0x3bfaca103e0184b9U, 0x3d0dce16bdd137e8U,
  0x3cc52c2cbe386bffU, 0xbc293b703d3bd428U, 0xbd0704a4be768832U, 0xbe2847c23c224c4aU,
  0x3e1d68753e5ffaffU, 0x3e301006bdcd6bffU, 0x3e052f003d20c526U, 0x3cc465ebbd3ead13U,
  0x3c273930bbf499b2U, 0x3deaf148bd980cb2U, 0xbdf290793e464e4aU, 0xbdbb2a5e3ea03593U,
  0xbe22b5c7be754f64U, 0xbe19aa683e766dccU, 0x3c28b48c3de7ce6aU, 0x3d8aee11bd8045feU,
  0xbd4281003e82257dU, 0x3e898f54bd4eec24U, 0xbda5bc0bbd31ee80U, 0x3da15287bc39dbf0U,
  0xbe17379a3d6fa32bU, 0xbb56846ebd361d0eU, 0x3ddf2010be2c5b81U, 0xbe0d80e33e6b31ffU,
  0xbd27e671bdbd23ceU, 0xbd13a87ebde02b5bU, 0x3c38bf2cbd5b6e90U, 0xbd730ce33e333826U,
  0x3d89a245bca09c78U, 0x3e3139e03d906eecU, 0xbd200e583dd12430U, 0xbca123443e62172dU,
  0xbd0272f9bce36d3bU, 0xbcc40d28bd2d183bU, 0x3e371cb13d91caafU, 0x3e726ee8bc244196U,
  0xbe0333c9bdafd8a4U, 0x3d2330b53cfbeb0cU, 0x3c128f0ebe2a89c3U, 0xbd8fa91ebccd509aU,
  0xbd40c43ebd063b24U, 0xbdb82cf6bd9118ceU, 0x3ebfce52be31652cU, 0xbe414d77bcd1928dU,
  0xbd8f5621bdf086fcU, 0xbe2909afbd61431cU, 0x3d9e25743dbb67a2U, 0xbe051b0ebe9c7454U,
  0x3e2a20c0bdf490a5U, 0xbd1a53db3d8a6046U, 0xbd3934c2bd5fd472U, 0xbd67f6e93e088bddU,
  0xbb6ed0703bc9601dU, 0x3c07b2353d808818U, 0x3e6742fbbe356c61U, 0x3e23fefebe03682bU,
  0x3dc3c57c3e5bd649U, 0xbdafb347bd641a90U, 0x3c5d0a6fbcad0b0eU, 0xbe172fdc3e444986U,
  0x3de802b73d8ccfa8U, 0xbe89d5c6bdd60b27U, 0x3d9e1bf63c86ddc6U, 0xbd18498c3c40acf5U,
  0x3cb495023e7221c8U, 0xbc519bc03ddaac65U, 0x3dbbefebbe860b4bU, 0x3d4016503de90543U,
  0x3cc54ea1be23b5a6U, 0x3e08108d3d4b935aU, 0xbc49eb3fbb8d529cU, 0x3e107fc03d8e9854U,
  0x3cc3f8aebe9cae82U, 0x3d737894be380802U, 0xbddaa436be48f0e6U, 0xbe08e7e1bde6eceaU,
  0x3da5c68cbe7a9495U, 0xbe30e10abdf581e0U, 0x3daebab3be09e4b2U, 0xbe5627e73e171254U,
  0xbe852d6ebd70fa3dU, 0x3dc5d7943ca26e74U, 0xbddc370ebd30cb70U, 0xbdeff9b7bd568a98U,
  0xbdb938f63e66183bU, 0x3c8791023e82ca5eU, 0x3d6f8236be188f9cU, 0x3da08895bde0e330U,
  0xbd96a9363de31643U, 0x3c87a819bd22bd3cU, 0x3dbd438a3e8a5ee7U, 0xbd0bd51ebe4f2819U,
  0xbe1a8c7abe0db820U, 0xbd1d5fafbe28689aU, 0x3cef8adfbe512ad2U, 0x3e1998e6bd2f94b5U,
  0x3e77ccf9bd79cb2fU, 0xba5a1c00bd87aee4U, 0x3e109d8a3c0fa47eU, 0x3d538b2d3b8c06f0U,
  0x3c9ece623d654f9bU, 0xbe14234abdab7c8eU, 0xbd9b2994bd7a1bbcU, 0x3e04d83c3e26c2b9U,
  0x3d965e08be3cc056U, 0x3e925f953d90a9fbU, 0xbd9038c3be581537U, 0xbbdd25e03d1ef585U,
  0xbd484a723db10f03U, 0x3d6f42f5bdcd5f1dU, 0x3cb95e2fbe838323U, 0xbe42de533db14e74U,
  0x3daf9884bdbf4133U, 0x3b8feb5cbcb34dc4U, 0xbe29e307bdbd3924U, 0xbd2dd0aa3dfbf77dU,
  0xbe8fdf81bd164545U, 0xbdd27ec63e2fb763U, 0xbdb4ada93e111bebU, 0x3bf2ab573e290cbcU,
  0x3d3d54463d5f41ceU, 0xbe3e9deabe51076dU, 0xbd8697a23ce6b0a7U, 0xbe46c234be065da6U,
  0xbd84856ebdbad927U, 0x3e051e183e522b7cU, 0xbe9cbf31bdfd98abU, 0x3db24017bc97fb78U,
  0xbdbb231ebdae48a6U, 0x3d670f603c485440U, 0x3db604b13e1a68d1U, 0xbdee7f2e3d990f4bU,
  0xbdc0fd1c3dde4b4fU, 0xbc0c3bb1bde86afbU, 0x3b3016dc3d3a12b3U, 0x3d9c4abe3dcd505aU,
  0xbdbdfd97bde13a4eU, 0x3e5a6050be98ca9dU, 0x3e369e1f3ce5ac84U, 0x3de4af5c3d6b09e6U,
  0x3d1baaca3cda67e7U, 0xbd0cc8d5be72bb9dU, 0x3d40b2dcbca0f84aU, 0x3d14253fbc50d6b3U,
  0x3e1099b53e65421eU, 0x3e2becadbddad5daU, 0xbb2e14863dafbd93U, 0xbd8b69c0be592bafU,
  0x3dfd3d90bd869c75U, 0xbe2c40f0bd3aaecfU, 0x3e3dc0ae3cdd4eb2U, 0x3e7a4d7a3d9052dbU,
  0xbd8554e5bd4c3bf4U, 0xbdd73096bccf6f57U, 0x3e1eb952bdbfed8fU, 0x3e2761cd3a4489e0U,
  0xbd823ec03e5d8426U, 0x3d188d903de97af9U, 0x3e4e680abc5b3d64U, 0xbcb5ada23d8e7611U,
  0xbe45abb83b7d3eb0U, 0x3d61e66f3d43beb6U, 0xbb51c3e8be85e448U, 0xbd31a93a3e14001eU,
  0x3d5aa6333e717e80U, 0xbdc63d38be24f96bU, 0xbdcabf25bdcfe330U, 0x3d164196bd05a6afU,
  0xbe6bc20e3e082f7eU, 0x3bbfd5d8bc94b88cU, 0xbe07c980be1e6364U, 0xbe0c2cacbd1ceb78U,
  0x3e5cb8a43d092125U, 0xbe1bf2b3bc1d7dbdU, 0xbd48be6abe23b754U, 0x3e7e5e08be28fc01U,
  0xbc682305bd8c4466U, 0x3d3f050e3cd91e1aU, 0xbddb0014bcc769d3U, 0x3dfb2cae3de0b282U,
  0x3e061b6abe0ca078U, 0xbc5a3981be6244bbU, 0xbe4c3bf33e024d1cU, 0xbd041e02bd08b0e0U,
  0xbcc162a43d096a86U, 0xbd90e0ffbe0be8f7U, 0x3d55472dbd745544U, 0xbe120ca53c33ba4eU,
  0x3c0189ba3de5034fU, 0xbe0623523d94406eU, 0xbdb17344bc659974U, 0x3db4354f3d5a85a8U,
  0x3d710ad73e17924cU, 0x3a2b2750be27c6bbU, 0x3be29b9fbd56a040U, 0x3e2b576f3d0c9c06U,
  0x3e0192de3d2e09a2U, 0x3e4258a7be2b894fU, 0x3c9e59e73d0bdb87U, 0x3e2c3f0a3ca7e129U,
  0xbd9e3c7b3d043b49U, 0xbd167bb9be0d641eU, 0x3e10b42e3c8ec1caU, 0x3d146dc4be1d3680U,
  0x3d8e37043d38a4dfU, 0xbd4c5cd43e5e9352U, 0x3dd290df3de08950U, 0x3dc39cf7bc902c08U,
  0xbbb4437c3d0bb8aaU, 0xbe1e4b67bd8c449bU, 0xbc9cecdd3dfe5aebU, 0xbd10d25b3dbb388aU,
  0xbe016cd4be8a9a51U, 0xbd80999b3d474dfeU, 0x3d96a9c1bc53e394U, 0x3d53c944bd11527bU,
  0xbcac89b4be602a54U, 0x3e0622bebd479586U, 0x3c9086a63e072cd5U, 0x3e541c2a3e21ccb8U,
  0x3d47951cbd9f2255U, 0x3de64f7b3d4f264eU, 0x3e98dfb93e6c2fa6U, 0xbdc27e233d54d117U,
  0xbd2acde03df891f8U, 0xbde0c652bad5da50U, 0x3e000dc3bc16606eU, 0xbd771e25bd97780dU,
  0xbd8dbfec3d79a482U, 0x3d95d2c3bec0911cU, 0x3df778eb3ea3c52dU, 0xbda35826be32ad0bU,
  0xbe1eb7b33d580dddU, 0x3e7180113ce0815bU, 0x3d4b98433e23c636U, 0xbdbe5c7e3d6919c2U,
  0x3e8da27c3e65bc63U, 0x3c7239c53e1e6049U, 0xbdd946573e042931U, 0xbc766e283d852c65U,
  0x3d276a16bc358d1dU, 0x3d9194883c993ebaU, 0xba9463083dbc1472U, 0xbddc15ec3be146f8U,
  0xbcf099f33c9a75ddU, 0x3dd244e93e4cb2f4U, 0xbd8cc268bc1ae11aU, 0xbd895183be274839U,
  0xbc5165b0bd1764f6U, 0x3e01ca7d3deabd0dU, 0x3ea32a233ce99e8cU, 0x3df11d803e10ce35U,
  0x3e45f232bdc30c57U, 0x3dd32bd43d8166c6U, 0x3c06d8b3bd08df60U, 0x3e41644bbd48e527U,
  0x3e2cd4073e6c9d15U, 0xbd4e15f93e7099ceU, 0xbd197addbe0e882fU, 0x3be7edcabd3cc394U,
  0xbe684439bcff6229U, 0x3d96f8603c40a028U, 0x3d2e613fbc4297b4U, 0xbd6519a8bc821048U,
  0x3e16c7543e1d4a37U, 0x3e5c4c223dff7266U, 0xbe344cf4bcaaf074U, 0xbe1d20dd3c90eae8U,
  0xbd610f8f3d38b16eU, 0x3e9423a93d92b8d1U, 0xbe5bbeb1bd6ff4daU, 0xbd70366ebe3d0a94U,
  0xbd4335433dd81dadU, 0x3d4913e2bc7b6458U, 0x3d4dd356bea1e9b7U, 0xbd52a75ebd38f426U,
  0x3deda54c3e09c51aU, 0xbe7a599c3d97a6dfU, 0x3d21d8013d285122U, 0x3db63191be5c83c5U,
  0xbb97f608be0b0d17U, 0xbc84bab63d710a6aU, 0x3ddbba043df52dd7U, 0xbdec3c08be10627eU,
  0xbe37cb6b3d36c628U, 0xbd2cf978bd3d882cU, 0xbcb2ecfcbe171516U, 0xbe1067ed3c45cf84U,
  0x3cb810553dfab70aU, 0xbd87910c3bc9854eU, 0xbdbb85343d05ee5aU, 0x3d891de4be1fb299U,
  0x3d3c5d18be10e724U, 0x3d8603373e4c0f60U, 0x3ce3ba2cbd19f6abU, 0xbd3490b9bd35c9fcU,
  0xbe763b1d3d91b6feU, 0x3dc8be32be76a8e2U, 0xbe6e62823e073314U, 0x3c56efd53dfc7e94U,
  0xbda85f02bd226919U, 0x3e2b0e48bc8e35cbU, 0x3eb278cc3c625228U, 0xbce5e1823bde8500U,
  0x3e95431fbdbe4ddaU, 0x3d83486c3d97315bU, 0x3ca265193b62993cU, 0x3ca8a5c6bd608a16U,
  0xbe5f76a33d296c5fU, 0xbd42491abc8606c2U, 0xbd0e002b3e174e8cU, 0x3e405c403e9fd756U,
  0xbdb140e1bbe031c6U, 0xbe45a2b53e9b080fU, 0x3cfd1ee73d2268c0U, 0x3dafa6763e9fbaf8U,
  0x3e2fe980bd9dca33U, 0x3d9da7153dafbb12U, 0xbd024db83e13ebbeU, 0xbc3e97aebd6490d0U,
  0x3cf55480bd4880f8U, 0xbc240340be01bb0eU, 0xbdb1f3aebd327185U, 0x3e61ee9f3c62a58cU,
  0xbdaa2879bc59ac0bU, 0xbe1a4085bd8e8dbdU, 0xbd3c9811bd955ccaU, 0x3dea28a9bde7ec53U,
  0x3da6535abe270854U, 0xbdde5db2bcd40581U, 0x3d5a04ad3e24c0b6U, 0xbdd5d1babe12bf9dU,
  0x3ddad515bdc22be9U, 0x3e495af8bd89d2ceU, 0x3bd416d0bdeb97e2U, 0x3d3e6633be3025daU,
  0x3ddb4a90bc8a002fU, 0x3d388605be1589adU, 0xbe24d7a83c3060b1U, 0x3de111c63e03172cU,
  0xbdbeaa2dbd8fcf3cU, 0xbdac2833bd812f36U, 0xbd8adde2be0b68e8U, 0x3d20dc383c1ab208U,
  0x3e089e3e3e69a599U, 0xb9a42d40be6230cdU, 0x3d14b2653d73997eU, 0x3e18f710bd98a549U,
  0xbcdfafec3d9a78bdU, 0x3e91b3bcbcc28c88U, 0x3dd3131e3c3f4299U, 0xbd5a7a82bccd2cb1U,
  0xbd922b06bde2ceb5U, 0xbe118fe6be38df8aU, 0xbd18da13be14fb27U, 0xbdaf12c8be07d64bU,
  0x3e2fd6c7bcf1ab0bU, 0xbcd5aacc3cb1a4b4U, 0x3dd354d8bdfe44b1U, 0xbd259a263e8b3546U,
  0x3d2c2fe0be2fc9f7U, 0xbe02b766bceb17f0U, 0xbce3a70e3e3c437dU, 0xbe0b1f42bd19a5bbU,
  0x3d1a1d6c3be362e7U, 0xbda029223e1d3bfaU, 0xbdebf469bd8b325aU, 0xbdee8b7a3deea28fU,
  0x3cf34adc3bcd9c5cU, 0x3e02fb8b3de6de6cU, 0x3ce6cfbcbd7f5301U, 0x3e120f56bce0b2e3U,
  0xbe036e863debab4dU, 0xbc8e5ababdd23ddcU, 0xbe8f66623ca95c51U, 0xbe01f567be195fb5U,
  0xbd54a9eebdc0cfc2U, 0xbe0f36eabc63f68aU, 0xbe245a543e0dc8adU, 0x3d9ce2de3e346ce7U,
  0xbe2f34f7be4ba741U, 0x3b1275b8bde068e1U, 0xbd95b14c3e0d4c0eU, 0x3e843e303d0eb0a7U,
  0xbd94620c3e38bcacU, 0x3d157ef73ba1a198U, 0x3c2aa5a63e2ba3b1U, 0xbe834dfd3e11af98U,
  0x3e2c94e63da32fb9U, 0xbe8b2c593dd2fca1U, 0x3d690c203cfe6654U, 0xbc47a8fe3bad168eU,
  0xbe16ca4eb8ae4580U, 0x3d86c40bbe8b1280U, 0x3a8bac88bde0e47bU, 0x3bd66860bdd1f0daU,
  0x3e1423c3be0b17b5U, 0x3d92a280bcb880a8U, 0xbc363f003db1056aU, 0xbb799a3c3e062aaaU,
  0x3c9ed54cbd08e891U, 0x3b98841c3e2db6aaU, 0xbdf7ad3e3e1a15d9U, 0xbd9a8c3ebe5f9aa0U,
  0x3d8ac0203ce4a88eU, 0xbbc78e76be06b936U, 0x3c460063be0dfba3U, 0x3df8552d3d92bc3aU,
  0x3df153eabe1ffbedU, 0x3e316b563d7ff656U, 0x3d24fde83e0c6437U, 0x3da573fabd7cbae8U,
  0x3af88e103e1c9aa5U, 0xbdce8c293e104ba9U, 0x3e1a3598bc47c336U, 0x3d9b4c01be0d8e3dU,
  0x3d91fb47be0ddfeeU, 0xbe37fe923dd48c34U, 0xbe5024023d8734b5U, 0xbe40958c3cb4ea04U,
  0xbd6a14533e09e5a3U, 0xbdb10b27bd10815eU, 0xbdfd05dd3d8c2802U, 0xbe70a2e6bde6a1a1U,
  0x3e5d5ac1bd017e2cU, 0xbe8d9984be305470U, 0xbd96201d3b99ab90U, 0x3e4c2e8b3d889e13U,
  0x3e31f0abbe979db1U, 0x3c5efd463d82000bU, 0x3e4e832bbdac3986U, 0xbe7a5cdebe667d3bU,
  0xbe1586c73b115e48U, 0xbda420e8bb004080U, 0x3c1b53f23d2441acU, 0x3dcbea563d30fca7U,
  0x3d44a2213d1b17cdU, 0xbe2991313d93cc20U, 0x3deb8728be17f09cU, 0xbe8016353d89e11cU,
  0xbc83cb0a3d912699U, 0x3e43b983bd8f904eU, 0x3e37a3253e336b5cU, 0xbde08b293e597dd9U,
  0x0U, 0x0U, 0x0U, 0x0U,
  0x0U, 0x0U, 0x0U, 0x0U,
  0x0U, 0x0U, 0x0U, 0x0U,
  0x0U, 0x0U, 0x0U, 0x0U,
  0x0U, 0x0U, 0x0U, 0x0U,
  0x0U, 0x0U, 0x0U, 0x0U,
  0xbe46f2053f4186f1U, 0xc00229933ea0f70dU, 0x3e735045bf8a4c94U, 0xbfb183773fa8858bU,
  0xc00e71bebefde340U, 0xbecb21a73f577076U, 0x3fcebd0c3ccd2a59U, 0xc01548e83e14ecb7U,
  0x3f8000003f800000U, 0x3f8000003f800000U, 0x3f8000003f800000U, 0x3f8000003f800000U,
  0x3f8000003f800000U, 0x3f8000003f800000U, 0x3f8000003f800000U, 0x3f8000003f800000U,
  0x3d3b6fafba166518U, 0x36b185e4bd831fd0U, 0x3e033aa5bccaa023U, 0x39ca6a31be2332eaU,
  0x392f19c23d03db1bU, 0x3d6edec43e904b79U, 0x3dd3c5c4bd955de4U, 0xbbe3be47beab69b7U,
  0xbe8b2df23f722e61U, 0xbff3b43e3e9b1103U, 0x3e71207dbf84519bU, 0xbf94f1603fbf46f0U,
  0xc0044165bed1a453U, 0xbe82c95b3f685adcU, 0x3fe4538b3d6fae80U, 0xc01c0b213f4713e6U,
  0x3e10326fc0bdd29cU, 0x3887ea65be4ca355U, 0x3f4ea0c6383b4468U, 0xb8b44fc1bfd015cfU,
  0x39946a003c570bddU, 0x3eaa79893fb2ddb7U, 0x3fee35dbbedc51bcU, 0x39a3af3940353ef7U,
  0x3e949eacU,
};


ai_handle g_stretch_lstm_weights_table[1 + 2] = {
  AI_HANDLE_PTR(AI_MAGIC_MARKER),
  AI_HANDLE_PTR(s_stretch_lstm_weights_array_u64),
  AI_HANDLE_PTR(AI_MAGIC_MARKER),
};

